// Auto-generated by src/models/export_tflm.py. Do not edit.
#include "model_data.h"

// 16-byte alignment is required by the TFLM tensor allocator.
alignas(16) const unsigned char g_model[] = {
    0x20, 0x00, 0x00, 0x00, 0x54, 0x46, 0x4c, 0x33, 0x00, 0x00, 0x00, 0x00,
    0x14, 0x00, 0x20, 0x00, 0x1c, 0x00, 0x18, 0x00, 0x14, 0x00, 0x10, 0x00,
    0x0c, 0x00, 0x00, 0x00, 0x08, 0x00, 0x04, 0x00, 0x14, 0x00, 0x00, 0x00,
    0x1c, 0x00, 0x00, 0x00, 0x94, 0x00, 0x00, 0x00, 0x14, 0x01, 0x00, 0x00,
    0x24, 0x08, 0x00, 0x00, 0x34, 0x08, 0x00, 0x00, 0x18, 0x14, 0x00, 0x00,
    0x03, 0x00, 0x00, 0x00, 0x01, 0x00, 0x00, 0x00, 0x10, 0x00, 0x00, 0x00,
    0x00, 0x00, 0x0a, 0x00, 0x10, 0x00, 0x0c, 0x00, 0x08, 0x00, 0x04, 0x00,
    0x0a, 0x00, 0x00, 0x00, 0x0c, 0x00, 0x00, 0x00, 0x1c, 0x00, 0x00, 0x00,
    0x3c, 0x00, 0x00, 0x00, 0x0f, 0x00, 0x00, 0x00, 0x73, 0x65, 0x72, 0x76,
    0x69, 0x6e, 0x67, 0x5f, 0x64, 0x65, 0x66, 0x61, 0x75, 0x6c, 0x74, 0x00,
    0x01, 0x00, 0x00, 0x00, 0x04, 0x00, 0x00, 0x00, 0x6c, 0xff, 0xff, 0xff,
    0x0a, 0x00, 0x00, 0x00, 0x04, 0x00, 0x00, 0x00, 0x08, 0x00, 0x00, 0x00,
    0x6f, 0x75, 0x74, 0x70, 0x75, 0x74, 0x5f, 0x30, 0x00, 0x00, 0x00, 0x00,
    0x01, 0x00, 0x00, 0x00, 0x04, 0x00, 0x00, 0x00, 0xc2, 0xf7, 0xff, 0xff,
    0x04, 0x00, 0x00, 0x00, 0x08, 0x00, 0x00, 0x00, 0x66, 0x65, 0x61, 0x74,
    0x75, 0x72, 0x65, 0x73, 0x00, 0x00, 0x00, 0x00, 0x03, 0x00, 0x00, 0x00,
    0x5c, 0x00, 0x00, 0x00, 0x2c, 0x00, 0x00, 0x00, 0x04, 0x00, 0x00, 0x00,
    0xb8, 0xff, 0xff, 0xff, 0x0e, 0x00, 0x00, 0x00, 0x04, 0x00, 0x00, 0x00,
    0x13, 0x00, 0x00, 0x00, 0x43, 0x4f, 0x4e, 0x56, 0x45, 0x52, 0x53, 0x49,
    0x4f, 0x4e, 0x5f, 0x4d, 0x45, 0x54, 0x41, 0x44, 0x41, 0x54, 0x41, 0x00,
    0xdc, 0xff, 0xff, 0xff, 0x0d, 0x00, 0x00, 0x00, 0x04, 0x00, 0x00, 0x00,
    0x13, 0x00, 0x00, 0x00, 0x6d, 0x69, 0x6e, 0x5f, 0x72, 0x75, 0x6e, 0x74,
    0x69, 0x6d, 0x65, 0x5f, 0x76, 0x65, 0x72, 0x73, 0x69, 0x6f, 0x6e, 0x00,
    0x08, 0x00, 0x0c, 0x00, 0x08, 0x00, 0x04, 0x00, 0x08, 0x00, 0x00, 0x00,
    0x0c, 0x00, 0x00, 0x00, 0x04, 0x00, 0x00, 0x00, 0x13, 0x00, 0x00, 0x00,
    0x6d, 0x69, 0x6e, 0x5f, 0x72, 0x75, 0x6e, 0x74, 0x69, 0x6d, 0x65, 0x5f,
    0x76, 0x65, 0x72, 0x73, 0x69, 0x6f, 0x6e, 0x00, 0x0f, 0x00, 0x00, 0x00,
    0x0c, 0x07, 0x00, 0x00, 0x04, 0x07, 0x00, 0x00, 0xe4, 0x06, 0x00, 0x00,
    0x94, 0x06, 0x00, 0x00, 0x44, 0x06, 0x00, 0x00, 0x34, 0x04, 0x00, 0x00,
    0xa4, 0x03, 0x00, 0x00, 0xd4, 0x00, 0x00, 0x00, 0xcc, 0x00, 0x00, 0x00,
    0xc4, 0x00, 0x00, 0x00, 0xbc, 0x00, 0x00, 0x00, 0xb4, 0x00, 0x00, 0x00,
    0x94, 0x00, 0x00, 0x00, 0x74, 0x00, 0x00, 0x00, 0x04, 0x00, 0x00, 0x00,
    0x9e, 0xf8, 0xff, 0xff, 0x04, 0x00, 0x00, 0x00, 0x60, 0x00, 0x00, 0x00,
    0x0c, 0x00, 0x00, 0x00, 0x08, 0x00, 0x0e, 0x00, 0x08, 0x00, 0x04, 0x00,
    0x08, 0x00, 0x00, 0x00, 0x10, 0x00, 0x00, 0x00, 0x28, 0x00, 0x00, 0x00,
    0x00, 0x00, 0x06, 0x00, 0x08, 0x00, 0x04, 0x00, 0x06, 0x00, 0x00, 0x00,
    0x04, 0x00, 0x00, 0x00, 0x01, 0x00, 0x00, 0x00, 0xeb, 0x03, 0x00, 0x00,
    0x0c, 0x00, 0x18, 0x00, 0x14, 0x00, 0x10, 0x00, 0x0c, 0x00, 0x04, 0x00,
    0x0c, 0x00, 0x00, 0x00, 0x38, 0x36, 0xfc, 0xc6, 0x9d, 0xc3, 0xf8, 0x39,
    0x02, 0x00, 0x00, 0x00, 0x02, 0x00, 0x00, 0x00, 0x04, 0x00, 0x00, 0x00,
    0x06, 0x00, 0x00, 0x00, 0x32, 0x2e, 0x31, 0x39, 0x2e, 0x31, 0x00, 0x00,
    0x0a, 0xf9, 0xff, 0xff, 0x04, 0x00, 0x00, 0x00, 0x10, 0x00, 0x00, 0x00,
    0x00, 0x00, 0x00, 0x00, 0x00, 0x00, 0x00, 0x00, 0x00, 0x00, 0x00, 0x00,
    0x00, 0x00, 0x00, 0x00, 0x26, 0xf9, 0xff, 0xff, 0x04, 0x00, 0x00, 0x00,
    0x10, 0x00, 0x00, 0x00, 0x31, 0x2e, 0x31, 0x34, 0x2e, 0x30, 0x00, 0x00,
    0x00, 0x00, 0x00, 0x00, 0x00, 0x00, 0x00, 0x00, 0x10, 0xf9, 0xff, 0xff,
    0x14, 0xf9, 0xff, 0xff, 0x18, 0xf9, 0xff, 0xff, 0x1c, 0xf9, 0xff, 0xff,
    0x52, 0xf9, 0xff, 0xff, 0x04, 0x00, 0x00, 0x00, 0xc0, 0x02, 0x00, 0x00,
    0x4e, 0xca, 0xea, 0x42, 0x21, 0x53, 0x1e, 0xd6, 0x3c, 0x0d, 0xfa, 0x4a,
    0x1d, 0xec, 0x66, 0x81, 0x42, 0xcc, 0x02, 0xac, 0x5f, 0xff, 0x13, 0x06,
    0x2b, 0x3a, 0xbc, 0x5d, 0x4d, 0xcc, 0xc8, 0xd2, 0x4c, 0xf5, 0x0f, 0xa8,
    0xfb, 0x2b, 0x3b, 0x13, 0xf6, 0x81, 0x25, 0xeb, 0xe8, 0xf6, 0xe3, 0xeb,
    0x23, 0x81, 0x4e, 0x34, 0x30, 0x20, 0xdf, 0x02, 0xf9, 0x1d, 0xef, 0xa7,
    0x1c, 0x31, 0xe8, 0xc3, 0xed, 0x3c, 0x53, 0xe1, 0xe1, 0x91, 0xa5, 0x09,
    0x47, 0x76, 0x14, 0xd6, 0xe4, 0xa7, 0xc2, 0x8c, 0x1c, 0x26, 0x77, 0x58,
    0xb6, 0x91, 0x7f, 0x4b, 0xc8, 0x1a, 0x4d, 0x5d, 0x3e, 0x7f, 0x0d, 0xf6,
    0x07, 0xf0, 0xe7, 0xb0, 0x5d, 0xd0, 0x52, 0xe7, 0xe8, 0x30, 0x43, 0xab,
    0x7b, 0xfb, 0x19, 0xde, 0x36, 0x39, 0x2f, 0xda, 0xf3, 0xad, 0xec, 0x05,
    0xe4, 0x0e, 0x1d, 0x0a, 0xf4, 0x75, 0x9b, 0xb0, 0xa5, 0x7f, 0x37, 0xaf,
    0x78, 0xf8, 0x44, 0x2d, 0xff, 0x7f, 0x60, 0xa3, 0x6d, 0xf8, 0xf0, 0xb1,
    0xf2, 0xc3, 0xda, 0xdf, 0x27, 0xf1, 0x40, 0xd9, 0x48, 0xf0, 0xbd, 0x18,
    0x71, 0xc2, 0x81, 0x02, 0x0d, 0xf8, 0xf0, 0xcc, 0x60, 0xbd, 0xd6, 0x4d,
    0xd7, 0x4d, 0xf2, 0xd1, 0x1c, 0xa9, 0xe8, 0x9d, 0x18, 0xaf, 0x58, 0xd9,
    0x23, 0x7f, 0xdc, 0x17, 0xbd, 0x73, 0x7d, 0xec, 0x42, 0xa9, 0x9b, 0xc2,
    0x02, 0xc5, 0x94, 0x55, 0x25, 0xf3, 0x1a, 0x0d, 0xc7, 0x33, 0x37, 0xef,
    0xff, 0xce, 0x02, 0x61, 0xc9, 0x3d, 0xfa, 0xf6, 0x97, 0x7f, 0xca, 0x88,
    0x96, 0x52, 0xcb, 0x9f, 0x98, 0x02, 0xff, 0x92, 0x6f, 0xad, 0x3c, 0x52,
    0x19, 0xb5, 0x7f, 0x22, 0x0c, 0x14, 0x10, 0xfa, 0x7b, 0xaf, 0xbc, 0x1d,
    0x21, 0xfc, 0xf6, 0xf5, 0xae, 0xe6, 0xb3, 0x20, 0x60, 0xe7, 0x5c, 0x06,
    0x0d, 0xce, 0x41, 0x81, 0x73, 0x9a, 0x68, 0x54, 0x1a, 0xe7, 0xf8, 0xd7,
    0x62, 0x4a, 0x60, 0x54, 0xdf, 0x24, 0xff, 0xe0, 0x7f, 0x01, 0x1d, 0xca,
    0x51, 0xa4, 0x4e, 0x0f, 0x32, 0x68, 0x40, 0x15, 0x0b, 0xdc, 0xfa, 0xf9,
    0x22, 0xf7, 0xe9, 0x32, 0xb4, 0xeb, 0xbd, 0x3b, 0x01, 0x3e, 0xfa, 0xdf,
    0xa9, 0x7f, 0xf7, 0x14, 0xb7, 0x14, 0xfc, 0xb2, 0x0b, 0xfa, 0x17, 0xc8,
    0xf2, 0xbc, 0x81, 0xa1, 0x95, 0xfe, 0xe2, 0x98, 0x3b, 0xb8, 0xc6, 0xe0,
    0xe5, 0x39, 0x76, 0x20, 0x2c, 0x59, 0x3e, 0xdb, 0xea, 0x30, 0x55, 0x7f,
    0x08, 0x07, 0x45, 0x09, 0x43, 0x38, 0xe1, 0xc0, 0xab, 0xf8, 0x32, 0xe6,
    0xb6, 0xcb, 0xc1, 0xcd, 0x95, 0xbf, 0xba, 0xf6, 0x58, 0x3d, 0xf2, 0x1b,
    0xe8, 0xd6, 0xb8, 0xb7, 0xa6, 0xf0, 0x8d, 0x7e, 0xfe, 0xbc, 0x81, 0x60,
    0xa9, 0x25, 0xb7, 0x17, 0x51, 0x3e, 0xf4, 0xb3, 0x25, 0xc5, 0x46, 0x91,
    0xba, 0xe6, 0xe8, 0x54, 0x36, 0xba, 0xb1, 0xd8, 0x5b, 0xe4, 0x81, 0x45,
    0xf2, 0x1b, 0x81, 0xe7, 0xf0, 0x33, 0x0a, 0x0a, 0x44, 0x4a, 0x9c, 0xde,
    0x9e, 0xe2, 0x54, 0xde, 0x6e, 0xb5, 0xb9, 0x4b, 0xbd, 0xdf, 0xbb, 0x14,
    0xdc, 0xdc, 0x45, 0x81, 0xdf, 0x5b, 0x50, 0x31, 0x3d, 0xfc, 0x05, 0xae,
    0x10, 0x13, 0x25, 0x3e, 0x33, 0xea, 0xf5, 0xe8, 0xac, 0xad, 0xd4, 0x66,
    0xb9, 0xcf, 0x81, 0x2b, 0x93, 0x16, 0x1e, 0x48, 0x3e, 0x4f, 0xf2, 0x8c,
    0x94, 0x1e, 0x5d, 0x81, 0x24, 0xfc, 0x45, 0xf6, 0xdc, 0xd4, 0xf4, 0x5f,
    0x05, 0xfa, 0x12, 0x2d, 0xcc, 0x15, 0xd9, 0x43, 0xab, 0x7f, 0xa4, 0xca,
    0xdd, 0x68, 0xd5, 0xaa, 0x69, 0x30, 0x5d, 0xc3, 0xf9, 0x82, 0xa5, 0xb6,
    0x0c, 0xfd, 0xa6, 0x0b, 0xa4, 0x21, 0x6e, 0xcc, 0x2c, 0x17, 0x1b, 0xbc,
    0xbf, 0x7f, 0xe2, 0x28, 0x3d, 0xe8, 0x67, 0xfc, 0xba, 0x0e, 0xf9, 0x7f,
    0x1e, 0xf2, 0xc7, 0xd9, 0xcb, 0x50, 0xab, 0x87, 0xef, 0xff, 0xb3, 0xf1,
    0x51, 0xe5, 0x1c, 0x04, 0x92, 0xb8, 0xf1, 0x2d, 0xf6, 0x25, 0x95, 0xf9,
    0xe9, 0x65, 0x17, 0xb0, 0xea, 0xcf, 0xd7, 0x0f, 0x81, 0x3b, 0x8c, 0xed,
    0xf3, 0x81, 0xdd, 0x9b, 0xcc, 0xe6, 0x3f, 0xeb, 0x2c, 0xc4, 0x3e, 0x9f,
    0xad, 0x46, 0x15, 0xae, 0x66, 0x21, 0xd1, 0xe6, 0xe6, 0xc0, 0xf7, 0x9c,
    0xb7, 0xab, 0x1f, 0x13, 0x3b, 0x0c, 0xe9, 0xe7, 0x3b, 0x3d, 0xd6, 0x05,
    0x1e, 0xfe, 0x35, 0x81, 0x06, 0xed, 0x2a, 0x9c, 0x46, 0x6e, 0xa5, 0xf9,
    0xfb, 0xf5, 0x2d, 0x34, 0x5e, 0x34, 0x47, 0xac, 0x5a, 0x81, 0xf3, 0x78,
    0x21, 0xab, 0xbb, 0x19, 0x19, 0x2e, 0x04, 0x59, 0x2e, 0xbf, 0xde, 0xd8,
    0xc2, 0x26, 0x9e, 0xa4, 0xa5, 0x40, 0x21, 0x18, 0x81, 0x43, 0xfb, 0x0c,
    0x90, 0xd5, 0xb6, 0x51, 0xaa, 0xc7, 0xd9, 0x81, 0xe5, 0xe1, 0x38, 0xfd,
    0x34, 0x2f, 0xca, 0x1f, 0xe3, 0x43, 0x5f, 0xee, 0x31, 0x02, 0x3d, 0x27,
    0xae, 0xce, 0x6c, 0x60, 0x3b, 0xf4, 0x1e, 0x45, 0x05, 0xa9, 0xdd, 0xbe,
    0xef, 0x1e, 0x79, 0x99, 0xaf, 0x7f, 0x2f, 0x1a, 0xb1, 0x51, 0x5f, 0x05,
    0xfd, 0xd8, 0x49, 0x0e, 0x99, 0x1c, 0xea, 0x2e, 0xdf, 0x24, 0x1d, 0xed,
    0xd6, 0x59, 0x81, 0xa8, 0xb2, 0x43, 0xa5, 0xa2, 0x1e, 0xfc, 0xff, 0xff,
    0x04, 0x00, 0x00, 0x00, 0x80, 0x00, 0x00, 0x00, 0x69, 0x0b, 0x00, 0x00,
    0x43, 0x05, 0x00, 0x00, 0x50, 0x09, 0x00, 0x00, 0x44, 0x07, 0x00, 0x00,
    0xa0, 0x06, 0x00, 0x00, 0x33, 0xf6, 0xff, 0xff, 0x84, 0x06, 0x00, 0x00,
    0x69, 0xfd, 0xff, 0xff, 0x82, 0xfe, 0xff, 0xff, 0x6c, 0xf9, 0xff, 0xff,
    0xcf, 0x0a, 0x00, 0x00, 0xfc, 0x0d, 0x00, 0x00, 0xf9, 0x08, 0x00, 0x00,
    0x81, 0xf3, 0xff, 0xff, 0x44, 0x01, 0x00, 0x00, 0x24, 0x01, 0x00, 0x00,
    0xb9, 0xf3, 0xff, 0xff, 0x65, 0x01, 0x00, 0x00, 0x04, 0x05, 0x00, 0x00,
    0x22, 0x07, 0x00, 0x00, 0xc8, 0x03, 0x00, 0x00, 0xe0, 0xf5, 0xff, 0xff,
    0x4d, 0x04, 0x00, 0x00, 0x8f, 0xf6, 0xff, 0xff, 0x55, 0x02, 0x00, 0x00,
    0xb7, 0x08, 0x00, 0x00, 0x27, 0x0b, 0x00, 0x00, 0xdd, 0x08, 0x00, 0x00,
    0x1d, 0x04, 0x00, 0x00, 0xd8, 0x0b, 0x00, 0x00, 0xe0, 0x05, 0x00, 0x00,
    0x31, 0xf3, 0xff, 0xff, 0xaa, 0xfc, 0xff, 0xff, 0x04, 0x00, 0x00, 0x00,
    0x00, 0x02, 0x00, 0x00, 0x1f, 0xb3, 0xfe, 0x6b, 0xcd, 0xf1, 0x8b, 0x04,
    0xdb, 0xf3, 0x15, 0x7f, 0xe4, 0x8a, 0xec, 0xd4, 0xe1, 0x15, 0x47, 0x3b,
    0x2d, 0x9a, 0x0f, 0x34, 0x18, 0xd4, 0x5d, 0x5d, 0x3d, 0x63, 0x56, 0xbb,
    0xee, 0x00, 0xea, 0x32, 0xb2, 0x6f, 0x27, 0xd8, 0xbe, 0x6c, 0x1f, 0xa0,
    0xd6, 0x43, 0x6e, 0x2b, 0x19, 0x7f, 0x1e, 0x23, 0x64, 0x25, 0x1b, 0x2e,
    0x60, 0x6a, 0xce, 0x1e, 0x0f, 0xd4, 0x2f, 0x79, 0x20, 0x12, 0x7f, 0xf7,
    0xf1, 0xb9, 0x5e, 0xf2, 0x2b, 0xfb, 0x34, 0x55, 0x52, 0xb2, 0xc1, 0x30,
    0x02, 0xb4, 0xe8, 0x4c, 0xec, 0x96, 0x08, 0xa9, 0xff, 0x53, 0x62, 0x22,
    0x0b, 0x0a, 0x1a, 0xa2, 0xce, 0xf9, 0x15, 0xcd, 0x05, 0xcc, 0xde, 0x4b,
    0x3e, 0x1d, 0x06, 0x19, 0xd8, 0xe1, 0x70, 0xe0, 0xa7, 0x21, 0x0d, 0xc3,
    0xfa, 0xe7, 0x4d, 0x0c, 0x7f, 0xe1, 0xd4, 0x53, 0xee, 0x05, 0x1f, 0xcd,
    0x23, 0x0b, 0xef, 0xac, 0x51, 0x28, 0x5d, 0x23, 0x52, 0x0c, 0x0a, 0x1e,
    0x1d, 0x1c, 0xf2, 0x7f, 0x37, 0x2a, 0x2e, 0xcb, 0x30, 0x10, 0xa8, 0x57,
    0xe3, 0x27, 0xca, 0x29, 0xe1, 0xf3, 0xd6, 0xf4, 0x25, 0x47, 0x55, 0x08,
    0xde, 0x53, 0xa3, 0x2f, 0x64, 0x4c, 0x49, 0xdc, 0xdc, 0xbf, 0x46, 0xdb,
    0x24, 0xd4, 0xdd, 0x1b, 0x24, 0xc6, 0xd5, 0xf3, 0x9b, 0x7f, 0xfb, 0x14,
    0xa7, 0x76, 0x35, 0x42, 0xb4, 0xd4, 0xb2, 0xb2, 0x17, 0x22, 0x08, 0xdd,
    0x5a, 0x3f, 0x1c, 0xa3, 0xd3, 0x7f, 0xf5, 0x40, 0x3b, 0x1e, 0xde, 0x34,
    0xb3, 0x73, 0x07, 0x25, 0xc3, 0xd7, 0xd5, 0xc2, 0x00, 0x00, 0xf6, 0x4b,
    0xe0, 0xb5, 0xa8, 0x81, 0xb0, 0x97, 0xca, 0xd0, 0x5a, 0xc0, 0xe4, 0xf7,
    0x3d, 0x90, 0x2b, 0x1b, 0xb4, 0x14, 0x1f, 0x06, 0x56, 0xb1, 0x0d, 0x5a,
    0x2a, 0x0e, 0x8f, 0xde, 0x17, 0x27, 0x71, 0xea, 0x81, 0xa0, 0x4a, 0x4b,
    0xc8, 0xe2, 0x17, 0xc5, 0x0f, 0x16, 0x6e, 0x4a, 0x18, 0xdc, 0xfa, 0xf9,
    0x03, 0x0c, 0x67, 0x41, 0xca, 0xd1, 0x4b, 0x38, 0xe9, 0xfb, 0xef, 0xba,
    0xa3, 0x79, 0x01, 0xf9, 0x96, 0x3a, 0x61, 0x81, 0x84, 0xfc, 0xee, 0xce,
    0xa5, 0xe2, 0xd0, 0x43, 0xed, 0xd2, 0x8c, 0x2d, 0x2a, 0xdc, 0x1d, 0xf5,
    0xf1, 0x85, 0x4e, 0xd1, 0x60, 0x8b, 0xa8, 0x82, 0x94, 0x3d, 0x44, 0x9b,
    0xcb, 0x16, 0x24, 0x38, 0xb9, 0x9b, 0xa5, 0x2e, 0x3f, 0xf9, 0x30, 0x13,
    0xcf, 0x94, 0xea, 0x26, 0xe0, 0x2d, 0xcd, 0x6e, 0xff, 0xc2, 0x1a, 0xfb,
    0xe2, 0xe1, 0x7f, 0x39, 0xff, 0x3e, 0xba, 0x0c, 0x4c, 0x38, 0x8f, 0x26,
    0x74, 0xd5, 0x27, 0x3a, 0x29, 0xe1, 0x24, 0x78, 0x6d, 0xf0, 0x33, 0x65,
    0x25, 0xf1, 0x37, 0xb2, 0xb6, 0x9f, 0xe0, 0x23, 0x9f, 0x9b, 0xe9, 0x7f,
    0x8b, 0xe2, 0xf7, 0xf4, 0xe5, 0x42, 0x2e, 0x41, 0x0a, 0xef, 0xc2, 0x22,
    0xad, 0x8a, 0x81, 0x41, 0xae, 0xde, 0x4d, 0x9e, 0x91, 0x30, 0x5f, 0x5a,
    0x6d, 0x3a, 0x52, 0x92, 0x07, 0x2e, 0x6b, 0x35, 0xf2, 0xee, 0x57, 0xca,
    0x4e, 0xa1, 0x05, 0xd6, 0xfc, 0xa6, 0xb4, 0xee, 0x32, 0x13, 0x1d, 0x2e,
    0x26, 0x3c, 0xfd, 0x89, 0x92, 0xe1, 0xe1, 0xec, 0x7f, 0x57, 0x68, 0xe6,
    0xe5, 0xe2, 0xdf, 0x0c, 0x28, 0xb7, 0xd3, 0x34, 0x50, 0x7f, 0xe9, 0x2f,
    0x41, 0xf6, 0x2c, 0x21, 0x23, 0xbb, 0xe0, 0x1b, 0x14, 0xff, 0x2a, 0x23,
    0xfa, 0x30, 0x1b, 0x1d, 0xb1, 0xec, 0xca, 0xb3, 0x03, 0x1b, 0xe7, 0x09,
    0xb2, 0xd7, 0xc6, 0xcc, 0x0f, 0x68, 0x22, 0xf4, 0x52, 0xc3, 0x7f, 0x28,
    0x12, 0x13, 0x2b, 0xf6, 0x5e, 0x2f, 0x49, 0x1a, 0xbe, 0x50, 0x28, 0xdd,
    0x28, 0xce, 0x1d, 0x9a, 0x4f, 0xa9, 0xee, 0x47, 0x35, 0xf1, 0x69, 0xcf,
    0xb6, 0xfe, 0xff, 0xff, 0x04, 0x00, 0x00, 0x00, 0x40, 0x00, 0x00, 0x00,
    0xb3, 0x0d, 0x00, 0x00, 0x29, 0xf9, 0xff, 0xff, 0xe7, 0x0a, 0x00, 0x00,
    0x9b, 0xfd, 0xff, 0xff, 0x88, 0xfb, 0xff, 0xff, 0x69, 0x03, 0x00, 0x00,
    0xab, 0xfa, 0xff, 0xff, 0x66, 0xfc, 0xff, 0xff, 0xac, 0x08, 0x00, 0x00,
    0xe9, 0xfc, 0xff, 0xff, 0x07, 0x08, 0x00, 0x00, 0x10, 0x07, 0x00, 0x00,
    0x20, 0x02, 0x00, 0x00, 0x28, 0xff, 0xff, 0xff, 0xf2, 0x01, 0x00, 0x00,
    0x81, 0x03, 0x00, 0x00, 0x02, 0xff, 0xff, 0xff, 0x04, 0x00, 0x00, 0x00,
    0x40, 0x00, 0x00, 0x00, 0x5d, 0x71, 0x81, 0x0d, 0x9d, 0xf2, 0x8a, 0x6b,
    0x8a, 0xc0, 0xf8, 0xe0, 0x52, 0x7c, 0xf4, 0x6a, 0xfc, 0x04, 0x42, 0xc2,
    0x20, 0xd0, 0xcd, 0xff, 0x8a, 0xe5, 0xc3, 0x7f, 0xb1, 0xea, 0x7f, 0x53,
    0xd4, 0x5d, 0xa1, 0xe2, 0x48, 0x51, 0x7f, 0x2d, 0x30, 0x41, 0xfd, 0x94,
    0xc7, 0x08, 0x33, 0x04, 0x4e, 0x24, 0x4e, 0xbb, 0xc5, 0x4b, 0x81, 0xff,
    0x62, 0x0e, 0x51, 0x96, 0xcc, 0x08, 0x26, 0xb0, 0x4e, 0xff, 0xff, 0xff,
    0x04, 0x00, 0x00, 0x00, 0x10, 0x00, 0x00, 0x00, 0x46, 0xfd, 0xff, 0xff,
    0x66, 0x02, 0x00, 0x00, 0xae, 0xfc, 0xff, 0xff, 0x0f, 0x03, 0x00, 0x00,
    0x38, 0xff, 0xff, 0xff, 0x3c, 0xff, 0xff, 0xff, 0x0f, 0x00, 0x00, 0x00,
    0x4d, 0x4c, 0x49, 0x52, 0x20, 0x43, 0x6f, 0x6e, 0x76, 0x65, 0x72, 0x74,
    0x65, 0x64, 0x2e, 0x00, 0x01, 0x00, 0x00, 0x00, 0x14, 0x00, 0x00, 0x00,
    0x00, 0x00, 0x0e, 0x00, 0x18, 0x00, 0x14, 0x00, 0x10, 0x00, 0x0c, 0x00,
    0x08, 0x00, 0x04, 0x00, 0x0e, 0x00, 0x00, 0x00, 0x14, 0x00, 0x00, 0x00,
    0x1c, 0x00, 0x00, 0x00, 0x38, 0x01, 0x00, 0x00, 0x3c, 0x01, 0x00, 0x00,
    0x40, 0x01, 0x00, 0x00, 0x04, 0x00, 0x00, 0x00, 0x6d, 0x61, 0x69, 0x6e,
    0x00, 0x00, 0x00, 0x00, 0x04, 0x00, 0x00, 0x00, 0xe0, 0x00, 0x00, 0x00,
    0x98, 0x00, 0x00, 0x00, 0x50, 0x00, 0x00, 0x00, 0x14, 0x00, 0x00, 0x00,
    0x00, 0x00, 0x0e, 0x00, 0x1a, 0x00, 0x14, 0x00, 0x10, 0x00, 0x0c, 0x00,
    0x0b, 0x00, 0x04, 0x00, 0x0e, 0x00, 0x00, 0x00, 0x1c, 0x00, 0x00, 0x00,
    0x00, 0x00, 0x00, 0x09, 0x1c, 0x00, 0x00, 0x00, 0x20, 0x00, 0x00, 0x00,
    0x01, 0x00, 0x00, 0x00, 0x00, 0x00, 0x06, 0x00, 0x08, 0x00, 0x04, 0x00,
    0x06, 0x00, 0x00, 0x00, 0x00, 0x00, 0x80, 0x3f, 0x01, 0x00, 0x00, 0x00,
    0x0a, 0x00, 0x00, 0x00, 0x01, 0x00, 0x00, 0x00, 0x09, 0x00, 0x00, 0x00,
    0xca, 0xff, 0xff, 0xff, 0x14, 0x00, 0x00, 0x00, 0x00, 0x00, 0x00, 0x08,
    0x10, 0x00, 0x00, 0x00, 0x14, 0x00, 0x00, 0x00, 0x04, 0x00, 0x04, 0x00,
    0x04, 0x00, 0x00, 0x00, 0x01, 0x00, 0x00, 0x00, 0x09, 0x00, 0x00, 0x00,
    0x03, 0x00, 0x00, 0x00, 0x08, 0x00, 0x00, 0x00, 0x02, 0x00, 0x00, 0x00,
    0x01, 0x00, 0x00, 0x00, 0x00, 0x00, 0x0e, 0x00, 0x14, 0x00, 0x00, 0x00,
    0x10, 0x00, 0x0c, 0x00, 0x0b, 0x00, 0x04, 0x00, 0x0e, 0x00, 0x00, 0x00,
    0x10, 0x00, 0x00, 0x00, 0x00, 0x00, 0x00, 0x08, 0x10, 0x00, 0x00, 0x00,
    0x14, 0x00, 0x00, 0x00, 0xba, 0xff, 0xff, 0xff, 0x00, 0x00, 0x00, 0x01,
    0x01, 0x00, 0x00, 0x00, 0x08, 0x00, 0x00, 0x00, 0x03, 0x00, 0x00, 0x00,
    0x07, 0x00, 0x00, 0x00, 0x04, 0x00, 0x00, 0x00, 0x03, 0x00, 0x00, 0x00,
    0x00, 0x00, 0x0e, 0x00, 0x16, 0x00, 0x00, 0x00, 0x10, 0x00, 0x0c, 0x00,
    0x0b, 0x00, 0x04, 0x00, 0x0e, 0x00, 0x00, 0x00, 0x18, 0x00, 0x00, 0x00,
    0x00, 0x00, 0x00, 0x08, 0x18, 0x00, 0x00, 0x00, 0x1c, 0x00, 0x00, 0x00,
    0x00, 0x00, 0x06, 0x00, 0x08, 0x00, 0x07, 0x00, 0x06, 0x00, 0x00, 0x00,
    0x00, 0x00, 0x00, 0x01, 0x01, 0x00, 0x00, 0x00, 0x07, 0x00, 0x00, 0x00,
    0x03, 0x00, 0x00, 0x00, 0x00, 0x00, 0x00, 0x00, 0x06, 0x00, 0x00, 0x00,
    0x05, 0x00, 0x00, 0x00, 0x01, 0x00, 0x00, 0x00, 0x0a, 0x00, 0x00, 0x00,
    0x01, 0x00, 0x00, 0x00, 0x00, 0x00, 0x00, 0x00, 0x0b, 0x00, 0x00, 0x00,
    0xf0, 0x09, 0x00, 0x00, 0x50, 0x09, 0x00, 0x00, 0xac, 0x08, 0x00, 0x00,
    0x98, 0x07, 0x00, 0x00, 0x7c, 0x06, 0x00, 0x00, 0xa8, 0x04, 0x00, 0x00,
    0xcc, 0x02, 0x00, 0x00, 0x00, 0x02, 0x00, 0x00, 0x2c, 0x01, 0x00, 0x00,
    0x80, 0x00, 0x00, 0x00, 0x04, 0x00, 0x00, 0x00, 0x52, 0xf6, 0xff, 0xff,
    0x00, 0x00, 0x00, 0x01, 0x18, 0x00, 0x00, 0x00, 0x20, 0x00, 0x00, 0x00,
    0x3c, 0x00, 0x00, 0x00, 0x0b, 0x00, 0x00, 0x00, 0x00, 0x00, 0x00, 0x09,
    0x50, 0x00, 0x00, 0x00, 0x02, 0x00, 0x00, 0x00, 0xff, 0xff, 0xff, 0xff,
    0x04, 0x00, 0x00, 0x00, 0x3c, 0xf6, 0xff, 0xff, 0x08, 0x00, 0x00, 0x00,
    0x10, 0x00, 0x00, 0x00, 0x01, 0x00, 0x00, 0x00, 0x80, 0xff, 0xff, 0xff,
    0xff, 0xff, 0xff, 0xff, 0x01, 0x00, 0x00, 0x00, 0x00, 0x00, 0x80, 0x3b,
    0x1b, 0x00, 0x00, 0x00, 0x53, 0x74, 0x61, 0x74, 0x65, 0x66, 0x75, 0x6c,
    0x50, 0x61, 0x72, 0x74, 0x69, 0x74, 0x69, 0x6f, 0x6e, 0x65, 0x64, 0x43,
    0x61, 0x6c, 0x6c, 0x5f, 0x31, 0x3a, 0x30, 0x00, 0x02, 0x00, 0x00, 0x00,
    0x01, 0x00, 0x00, 0x00, 0x04, 0x00, 0x00, 0x00, 0xca, 0xf6, 0xff, 0xff,
    0x00, 0x00, 0x00, 0x01, 0x18, 0x00, 0x00, 0x00, 0x20, 0x00, 0x00, 0x00,
    0x40, 0x00, 0x00, 0x00, 0x0a, 0x00, 0x00, 0x00, 0x00, 0x00, 0x00, 0x09,
    0x80, 0x00, 0x00, 0x00, 0x02, 0x00, 0x00, 0x00, 0xff, 0xff, 0xff, 0xff,
    0x04, 0x00, 0x00, 0x00, 0xb4, 0xf6, 0xff, 0xff, 0x08, 0x00, 0x00, 0x00,
    0x14, 0x00, 0x00, 0x00, 0x01, 0x00, 0x00, 0x00, 0xc2, 0xff, 0xff, 0xff,
    0xff, 0xff, 0xff, 0xff, 0x00, 0x00, 0x00, 0x00, 0x01, 0x00, 0x00, 0x00,
    0x3f, 0xb5, 0xb3, 0x3d, 0x46, 0x00, 0x00, 0x00, 0x62, 0x65, 0x61, 0x72,
    0x69, 0x6e, 0x67, 0x5f, 0x66, 0x61, 0x75, 0x6c, 0x74, 0x5f, 0x6d, 0x6c,
    0x70, 0x5f, 0x31, 0x2f, 0x66, 0x61, 0x75, 0x6c, 0x74, 0x5f, 0x31, 0x2f,
    0x4d, 0x61, 0x74, 0x4d, 0x75, 0x6c, 0x3b, 0x62, 0x65, 0x61, 0x72, 0x69,
    0x6e, 0x67, 0x5f, 0x66, 0x61, 0x75, 0x6c, 0x74, 0x5f, 0x6d, 0x6c, 0x70,
    0x5f, 0x31, 0x2f, 0x66, 0x61, 0x75, 0x6c, 0x74, 0x5f, 0x31, 0x2f, 0x42,
    0x69, 0x61, 0x73, 0x41, 0x64, 0x64, 0x00, 0x00, 0x02, 0x00, 0x00, 0x00,
    0x01, 0x00, 0x00, 0x00, 0x04, 0x00, 0x00, 0x00, 0x72, 0xf7, 0xff, 0xff,
    0x00, 0x00, 0x00, 0x01, 0x18, 0x00, 0x00, 0x00, 0x20, 0x00, 0x00, 0x00,
    0x40, 0x00, 0x00, 0x00, 0x09, 0x00, 0x00, 0x00, 0x00, 0x00, 0x00, 0x09,
    0xa8, 0x00, 0x00, 0x00, 0x02, 0x00, 0x00, 0x00, 0xff, 0xff, 0xff, 0xff,
    0x10, 0x00, 0x00, 0x00, 0x5c, 0xf7, 0xff, 0xff, 0x08, 0x00, 0x00, 0x00,
    0x14, 0x00, 0x00, 0x00, 0x01, 0x00, 0x00, 0x00, 0x80, 0xff, 0xff, 0xff,
    0xff, 0xff, 0xff, 0xff, 0x00, 0x00, 0x00, 0x00, 0x01, 0x00, 0x00, 0x00,
    0x19, 0x2f, 0x15, 0x3d, 0x6d, 0x00, 0x00, 0x00, 0x62, 0x65, 0x61, 0x72,
    0x69, 0x6e, 0x67, 0x5f, 0x66, 0x61, 0x75, 0x6c, 0x74, 0x5f, 0x6d, 0x6c,
    0x70, 0x5f, 0x31, 0x2f, 0x64, 0x65, 0x6e, 0x73, 0x65, 0x5f, 0x31, 0x5f,
    0x32, 0x2f, 0x4d, 0x61, 0x74, 0x4d, 0x75, 0x6c, 0x3b, 0x62, 0x65, 0x61,
    0x72, 0x69, 0x6e, 0x67, 0x5f, 0x66, 0x61, 0x75, 0x6c, 0x74, 0x5f, 0x6d,
    0x6c, 0x70, 0x5f, 0x31, 0x2f, 0x64, 0x65, 0x6e, 0x73, 0x65, 0x5f, 0x31,
    0x5f, 0x32, 0x2f, 0x52, 0x65, 0x6c, 0x75, 0x3b, 0x62, 0x65, 0x61, 0x72,
    0x69, 0x6e, 0x67, 0x5f, 0x66, 0x61, 0x75, 0x6c, 0x74, 0x5f, 0x6d, 0x6c,
    0x70, 0x5f, 0x31, 0x2f, 0x64, 0x65, 0x6e, 0x73, 0x65, 0x5f, 0x31, 0x5f,
    0x32, 0x2f, 0x42, 0x69, 0x61, 0x73, 0x41, 0x64, 0x64, 0x00, 0x00, 0x00,
    0x02, 0x00, 0x00, 0x00, 0x01, 0x00, 0x00, 0x00, 0x10, 0x00, 0x00, 0x00,
    0x42, 0xf8, 0xff, 0xff, 0x00, 0x00, 0x00, 0x01, 0x18, 0x00, 0x00, 0x00,
    0x20, 0x00, 0x00, 0x00, 0x40, 0x00, 0x00, 0x00, 0x08, 0x00, 0x00, 0x00,
    0x00, 0x00, 0x00, 0x09, 0xa0, 0x00, 0x00, 0x00, 0x02, 0x00, 0x00, 0x00,
    0xff, 0xff, 0xff, 0xff, 0x20, 0x00, 0x00, 0x00, 0x2c, 0xf8, 0xff, 0xff,
    0x08, 0x00, 0x00, 0x00, 0x14, 0x00, 0x00, 0x00, 0x01, 0x00, 0x00, 0x00,
    0x80, 0xff, 0xff, 0xff, 0xff, 0xff, 0xff, 0xff, 0x00, 0x00, 0x00, 0x00,
    0x01, 0x00, 0x00, 0x00, 0x76, 0xbd, 0xa6, 0x3c, 0x67, 0x00, 0x00, 0x00,
    0x62, 0x65, 0x61, 0x72, 0x69, 0x6e, 0x67, 0x5f, 0x66, 0x61, 0x75, 0x6c,
    0x74, 0x5f, 0x6d, 0x6c, 0x70, 0x5f, 0x31, 0x2f, 0x64, 0x65, 0x6e, 0x73,
    0x65, 0x5f, 0x31, 0x2f, 0x4d, 0x61, 0x74, 0x4d, 0x75, 0x6c, 0x3b, 0x62,
    0x65, 0x61, 0x72, 0x69, 0x6e, 0x67, 0x5f, 0x66, 0x61, 0x75, 0x6c, 0x74,
    0x5f, 0x6d, 0x6c, 0x70, 0x5f, 0x31, 0x2f, 0x64, 0x65, 0x6e, 0x73, 0x65,
    0x5f, 0x31, 0x2f, 0x52, 0x65, 0x6c, 0x75, 0x3b, 0x62, 0x65, 0x61, 0x72,
    0x69, 0x6e, 0x67, 0x5f, 0x66, 0x61, 0x75, 0x6c, 0x74, 0x5f, 0x6d, 0x6c,
    0x70, 0x5f, 0x31, 0x2f, 0x64, 0x65, 0x6e, 0x73, 0x65, 0x5f, 0x31, 0x2f,
    0x42, 0x69, 0x61, 0x73, 0x41, 0x64, 0x64, 0x00, 0x02, 0x00, 0x00, 0x00,
    0x01, 0x00, 0x00, 0x00, 0x20, 0x00, 0x00, 0x00, 0xa6, 0xf9, 0xff, 0xff,
    0x00, 0x00, 0x00, 0x01, 0x14, 0x00, 0x00, 0x00, 0xa8, 0x01, 0x00, 0x00,
    0x07, 0x00, 0x00, 0x00, 0x00, 0x00, 0x00, 0x09, 0xb4, 0x01, 0x00, 0x00,
    0xe4, 0xf8, 0xff, 0xff, 0x08, 0x00, 0x00, 0x00, 0x0c, 0x01, 0x00, 0x00,
    0x20, 0x00, 0x00, 0x00, 0x00, 0x00, 0x00, 0x00, 0x00, 0x00, 0x00, 0x00,
    0x00, 0x00, 0x00, 0x00, 0x00, 0x00, 0x00, 0x00, 0x00, 0x00, 0x00, 0x00,
    0x00, 0x00, 0x00, 0x00, 0x00, 0x00, 0x00, 0x00, 0x00, 0x00, 0x00, 0x00,
    0x00, 0x00, 0x00, 0x00, 0x00, 0x00, 0x00, 0x00, 0x00, 0x00, 0x00, 0x00,
    0x00, 0x00, 0x00, 0x00, 0x00, 0x00, 0x00, 0x00, 0x00, 0x00, 0x00, 0x00,
    0x00, 0x00, 0x00, 0x00, 0x00, 0x00, 0x00, 0x00, 0x00, 0x00, 0x00, 0x00,
    0x00, 0x00, 0x00, 0x00, 0x00, 0x00, 0x00, 0x00, 0x00, 0x00, 0x00, 0x00,
    0x00, 0x00, 0x00, 0x00, 0x00, 0x00, 0x00, 0x00, 0x00, 0x00, 0x00, 0x00,
    0x00, 0x00, 0x00, 0x00, 0x00, 0x00, 0x00, 0x00, 0x00, 0x00, 0x00, 0x00,
    0x00, 0x00, 0x00, 0x00, 0x00, 0x00, 0x00, 0x00, 0x00, 0x00, 0x00, 0x00,
    0x00, 0x00, 0x00, 0x00, 0x00, 0x00, 0x00, 0x00, 0x00, 0x00, 0x00, 0x00,
    0x00, 0x00, 0x00, 0x00, 0x00, 0x00, 0x00, 0x00, 0x00, 0x00, 0x00, 0x00,
    0x00, 0x00, 0x00, 0x00, 0x00, 0x00, 0x00, 0x00, 0x00, 0x00, 0x00, 0x00,
    0x00, 0x00, 0x00, 0x00, 0x00, 0x00, 0x00, 0x00, 0x00, 0x00, 0x00, 0x00,
    0x00, 0x00, 0x00, 0x00, 0x00, 0x00, 0x00, 0x00, 0x00, 0x00, 0x00, 0x00,
    0x00, 0x00, 0x00, 0x00, 0x00, 0x00, 0x00, 0x00, 0x00, 0x00, 0x00, 0x00,
    0x00, 0x00, 0x00, 0x00, 0x00, 0x00, 0x00, 0x00, 0x00, 0x00, 0x00, 0x00,
    0x00, 0x00, 0x00, 0x00, 0x00, 0x00, 0x00, 0x00, 0x00, 0x00, 0x00, 0x00,
    0x00, 0x00, 0x00, 0x00, 0x00, 0x00, 0x00, 0x00, 0x00, 0x00, 0x00, 0x00,
    0x00, 0x00, 0x00, 0x00, 0x00, 0x00, 0x00, 0x00, 0x00, 0x00, 0x00, 0x00,
    0x00, 0x00, 0x00, 0x00, 0x00, 0x00, 0x00, 0x00, 0x00, 0x00, 0x00, 0x00,
    0x00, 0x00, 0x00, 0x00, 0x00, 0x00, 0x00, 0x00, 0x00, 0x00, 0x00, 0x00,
    0x20, 0x00, 0x00, 0x00, 0x59, 0x03, 0x6d, 0x3b, 0xea, 0xde, 0x50, 0x3b,
    0x50, 0x22, 0xa1, 0x3b, 0x2d, 0x45, 0x47, 0x3b, 0x2a, 0x70, 0x80, 0x3b,
    0xd0, 0x5e, 0x78, 0x3b, 0x57, 0x61, 0x70, 0x3b, 0xd0, 0x05, 0x31, 0x3b,
    0x0c, 0x9c, 0x5e, 0x3b, 0x06, 0x62, 0x56, 0x3b, 0x0f, 0xf9, 0x6b, 0x3b,
    0x63, 0x7b, 0x53, 0x3b, 0x18, 0x46, 0x78, 0x3b, 0x06, 0x50, 0x85, 0x3b,
    0xdf, 0x80, 0x4c, 0x3b, 0xcc, 0x50, 0x96, 0x3b, 0x5a, 0x6c, 0x4b, 0x3b,
    0xb9, 0x3f, 0x5c, 0x3b, 0x63, 0x0b, 0x32, 0x3b, 0xc5, 0xd6, 0xa8, 0x3b,
    0x9d, 0x7d, 0x4c, 0x3b, 0xfe, 0x82, 0x90, 0x3b, 0xbe, 0x7b, 0x47, 0x3b,
    0x3b, 0x2d, 0x89, 0x3b, 0x51, 0xcb, 0x4b, 0x3b, 0x38, 0x7d, 0x2e, 0x3b,
    0xe1, 0x08, 0x6d, 0x3b, 0xd6, 0xb9, 0x6d, 0x3b, 0x33, 0x8b, 0x4a, 0x3b,
    0x8f, 0x6b, 0x6e, 0x3b, 0xfc, 0x94, 0x1a, 0x3b, 0xbf, 0xe3, 0x8b, 0x3b,
    0x12, 0x00, 0x00, 0x00, 0x74, 0x66, 0x6c, 0x2e, 0x70, 0x73, 0x65, 0x75,
    0x64, 0x6f, 0x5f, 0x71, 0x63, 0x6f, 0x6e, 0x73, 0x74, 0x35, 0x00, 0x00,
    0x02, 0x00, 0x00, 0x00, 0x20, 0x00, 0x00, 0x00, 0x16, 0x00, 0x00, 0x00,
    0x7e, 0xfb, 0xff, 0xff, 0x00, 0x00, 0x00, 0x01, 0x14, 0x00, 0x00, 0x00,
    0xa4, 0x01, 0x00, 0x00, 0x06, 0x00, 0x00, 0x00, 0x00, 0x00, 0x00, 0x02,
    0xb0, 0x01, 0x00, 0x00, 0xbc, 0xfa, 0xff, 0xff, 0x08, 0x00, 0x00, 0x00,
    0x08, 0x01, 0x00, 0x00, 0x20, 0x00, 0x00, 0x00, 0x00, 0x00, 0x00, 0x00,
    0x00, 0x00, 0x00, 0x00, 0x00, 0x00, 0x00, 0x00, 0x00, 0x00, 0x00, 0x00,
    0x00, 0x00, 0x00, 0x00, 0x00, 0x00, 0x00, 0x00, 0x00, 0x00, 0x00, 0x00,
    0x00, 0x00, 0x00, 0x00, 0x00, 0x00, 0x00, 0x00, 0x00, 0x00, 0x00, 0x00,
    0x00, 0x00, 0x00, 0x00, 0x00, 0x00, 0x00, 0x00, 0x00, 0x00, 0x00, 0x00,
    0x00, 0x00, 0x00, 0x00, 0x00, 0x00, 0x00, 0x00, 0x00, 0x00, 0x00, 0x00,
    0x00, 0x00, 0x00, 0x00, 0x00, 0x00, 0x00, 0x00, 0x00, 0x00, 0x00, 0x00,
    0x00, 0x00, 0x00, 0x00, 0x00, 0x00, 0x00, 0x00, 0x00, 0x00, 0x00, 0x00,
    0x00, 0x00, 0x00, 0x00, 0x00, 0x00, 0x00, 0x00, 0x00, 0x00, 0x00, 0x00,
    0x00, 0x00, 0x00, 0x00, 0x00, 0x00, 0x00, 0x00, 0x00, 0x00, 0x00, 0x00,
    0x00, 0x00, 0x00, 0x00, 0x00, 0x00, 0x00, 0x00, 0x00, 0x00, 0x00, 0x00,
    0x00, 0x00, 0x00, 0x00, 0x00, 0x00, 0x00, 0x00, 0x00, 0x00, 0x00, 0x00,
    0x00, 0x00, 0x00, 0x00, 0x00, 0x00, 0x00, 0x00, 0x00, 0x00, 0x00, 0x00,
    0x00, 0x00, 0x00, 0x00, 0x00, 0x00, 0x00, 0x00, 0x00, 0x00, 0x00, 0x00,
    0x00, 0x00, 0x00, 0x00, 0x00, 0x00, 0x00, 0x00, 0x00, 0x00, 0x00, 0x00,
    0x00, 0x00, 0x00, 0x00, 0x00, 0x00, 0x00, 0x00, 0x00, 0x00, 0x00, 0x00,
    0x00, 0x00, 0x00, 0x00, 0x00, 0x00, 0x00, 0x00, 0x00, 0x00, 0x00, 0x00,
    0x00, 0x00, 0x00, 0x00, 0x00, 0x00, 0x00, 0x00, 0x00, 0x00, 0x00, 0x00,
    0x00, 0x00, 0x00, 0x00, 0x00, 0x00, 0x00, 0x00, 0x00, 0x00, 0x00, 0x00,
    0x00, 0x00, 0x00, 0x00, 0x00, 0x00, 0x00, 0x00, 0x00, 0x00, 0x00, 0x00,
    0x00, 0x00, 0x00, 0x00, 0x00, 0x00, 0x00, 0x00, 0x00, 0x00, 0x00, 0x00,
    0x00, 0x00, 0x00, 0x00, 0x00, 0x00, 0x00, 0x00, 0x00, 0x00, 0x00, 0x00,
    0x20, 0x00, 0x00, 0x00, 0xca, 0x54, 0xaf, 0x38, 0x49, 0x83, 0x9a, 0x38,
    0x1c, 0x66, 0xee, 0x38, 0x2a, 0x69, 0x93, 0x38, 0x6c, 0x06, 0xbe, 0x38,
    0x99, 0xbb, 0xb7, 0x38, 0x73, 0xd2, 0xb1, 0x38, 0x00, 0xf4, 0x82, 0x38,
    0x19, 0xad, 0xa4, 0x38, 0x29, 0x97, 0x9e, 0x38, 0xcd, 0x8f, 0xae, 0x38,
    0xca, 0x71, 0x9c, 0x38, 0x4f, 0xa9, 0xb7, 0x38, 0xa3, 0x3c, 0xc5, 0x38,
    0x36, 0x48, 0x97, 0x38, 0x98, 0x64, 0xde, 0x38, 0xa7, 0x7b, 0x96, 0x38,
    0x0c, 0xee, 0xa2, 0x38, 0x81, 0xb5, 0x83, 0x38, 0x60, 0xcc, 0xf9, 0x38,
    0xcd, 0x45, 0x97, 0x38, 0x56, 0xce, 0xd5, 0x38, 0x88, 0x91, 0x93, 0x38,
    0x2d, 0xf4, 0xca, 0x38, 0xe7, 0xc1, 0x96, 0x38, 0x34, 0x14, 0x81, 0x38,
    0xe1, 0x58, 0xaf, 0x38, 0xc9, 0xdb, 0xaf, 0x38, 0x19, 0xd5, 0x95, 0x38,
    0x42, 0x5f, 0xb0, 0x38, 0x7e, 0xb4, 0x64, 0x38, 0xb7, 0xf7, 0xce, 0x38,
    0x12, 0x00, 0x00, 0x00, 0x74, 0x66, 0x6c, 0x2e, 0x70, 0x73, 0x65, 0x75,
    0x64, 0x6f, 0x5f, 0x71, 0x63, 0x6f, 0x6e, 0x73, 0x74, 0x34, 0x00, 0x00,
    0x01, 0x00, 0x00, 0x00, 0x20, 0x00, 0x00, 0x00, 0x4e, 0xfd, 0xff, 0xff,
    0x00, 0x00, 0x00, 0x01, 0x14, 0x00, 0x00, 0x00, 0xe8, 0x00, 0x00, 0x00,
    0x05, 0x00, 0x00, 0x00, 0x00, 0x00, 0x00, 0x09, 0xf4, 0x00, 0x00, 0x00,
    0x8c, 0xfc, 0xff, 0xff, 0x08, 0x00, 0x00, 0x00, 0x8c, 0x00, 0x00, 0x00,
    0x10, 0x00, 0x00, 0x00, 0x00, 0x00, 0x00, 0x00, 0x00, 0x00, 0x00, 0x00,
    0x00, 0x00, 0x00, 0x00, 0x00, 0x00, 0x00, 0x00, 0x00, 0x00, 0x00, 0x00,
    0x00, 0x00, 0x00, 0x00, 0x00, 0x00, 0x00, 0x00, 0x00, 0x00, 0x00, 0x00,
    0x00, 0x00, 0x00, 0x00, 0x00, 0x00, 0x00, 0x00, 0x00, 0x00, 0x00, 0x00,
    0x00, 0x00, 0x00, 0x00, 0x00, 0x00, 0x00, 0x00, 0x00, 0x00, 0x00, 0x00,
    0x00, 0x00, 0x00, 0x00, 0x00, 0x00, 0x00, 0x00, 0x00, 0x00, 0x00, 0x00,
    0x00, 0x00, 0x00, 0x00, 0x00, 0x00, 0x00, 0x00, 0x00, 0x00, 0x00, 0x00,
    0x00, 0x00, 0x00, 0x00, 0x00, 0x00, 0x00, 0x00, 0x00, 0x00, 0x00, 0x00,
    0x00, 0x00, 0x00, 0x00, 0x00, 0x00, 0x00, 0x00, 0x00, 0x00, 0x00, 0x00,
    0x00, 0x00, 0x00, 0x00, 0x00, 0x00, 0x00, 0x00, 0x00, 0x00, 0x00, 0x00,
    0x00, 0x00, 0x00, 0x00, 0x00, 0x00, 0x00, 0x00, 0x00, 0x00, 0x00, 0x00,
    0x00, 0x00, 0x00, 0x00, 0x10, 0x00, 0x00, 0x00, 0x59, 0x68, 0x92, 0x3b,
    0x09, 0x9a, 0x7c, 0x3b, 0x46, 0xf4, 0xa1, 0x3b, 0x20, 0x83, 0x98, 0x3b,
    0x52, 0x65, 0x86, 0x3b, 0x90, 0xc2, 0x6c, 0x3b, 0x12, 0x8c, 0x9b, 0x3b,
    0xe2, 0x44, 0x4a, 0x3b, 0x25, 0x12, 0x85, 0x3b, 0xd4, 0xaf, 0x43, 0x3b,
    0xa4, 0x6e, 0x82, 0x3b, 0xd4, 0xe0, 0x78, 0x3b, 0x27, 0x2f, 0x47, 0x3b,
    0x4f, 0x2c, 0x53, 0x3b, 0x0b, 0xe5, 0x9f, 0x3b, 0x31, 0xb2, 0x90, 0x3b,
    0x12, 0x00, 0x00, 0x00, 0x74, 0x66, 0x6c, 0x2e, 0x70, 0x73, 0x65, 0x75,
    0x64, 0x6f, 0x5f, 0x71, 0x63, 0x6f, 0x6e, 0x73, 0x74, 0x33, 0x00, 0x00,
    0x02, 0x00, 0x00, 0x00, 0x10, 0x00, 0x00, 0x00, 0x20, 0x00, 0x00, 0x00,
    0x66, 0xfe, 0xff, 0xff, 0x00, 0x00, 0x00, 0x01, 0x14, 0x00, 0x00, 0x00,
    0xe4, 0x00, 0x00, 0x00, 0x04, 0x00, 0x00, 0x00, 0x00, 0x00, 0x00, 0x02,
    0xf0, 0x00, 0x00, 0x00, 0xa4, 0xfd, 0xff, 0xff, 0x08, 0x00, 0x00, 0x00,
    0x88, 0x00, 0x00, 0x00, 0x10, 0x00, 0x00, 0x00, 0x00, 0x00, 0x00, 0x00,
    0x00, 0x00, 0x00, 0x00, 0x00, 0x00, 0x00, 0x00, 0x00, 0x00, 0x00, 0x00,
    0x00, 0x00, 0x00, 0x00, 0x00, 0x00, 0x00, 0x00, 0x00, 0x00, 0x00, 0x00,
    0x00, 0x00, 0x00, 0x00, 0x00, 0x00, 0x00, 0x00, 0x00, 0x00, 0x00, 0x00,
    0x00, 0x00, 0x00, 0x00, 0x00, 0x00, 0x00, 0x00, 0x00, 0x00, 0x00, 0x00,
    0x00, 0x00, 0x00, 0x00, 0x00, 0x00, 0x00, 0x00, 0x00, 0x00, 0x00, 0x00,
    0x00, 0x00, 0x00, 0x00, 0x00, 0x00, 0x00, 0x00, 0x00, 0x00, 0x00, 0x00,
    0x00, 0x00, 0x00, 0x00, 0x00, 0x00, 0x00, 0x00, 0x00, 0x00, 0x00, 0x00,
    0x00, 0x00, 0x00, 0x00, 0x00, 0x00, 0x00, 0x00, 0x00, 0x00, 0x00, 0x00,
    0x00, 0x00, 0x00, 0x00, 0x00, 0x00, 0x00, 0x00, 0x00, 0x00, 0x00, 0x00,
    0x00, 0x00, 0x00, 0x00, 0x00, 0x00, 0x00, 0x00, 0x00, 0x00, 0x00, 0x00,
    0x00, 0x00, 0x00, 0x00, 0x10, 0x00, 0x00, 0x00, 0x08, 0xb8, 0xbe, 0x38,
    0xd4, 0x86, 0xa4, 0x38, 0x83, 0xf8, 0xd2, 0x38, 0xcc, 0xab, 0xc6, 0x38,
    0x54, 0x12, 0xaf, 0x38, 0x62, 0x35, 0x9a, 0x38, 0xe4, 0x9f, 0xca, 0x38,
    0x5d, 0xbe, 0x83, 0x38, 0x7f, 0x58, 0xad, 0x38, 0xad, 0xe9, 0x7e, 0x38,
    0x8c, 0xe8, 0xa9, 0x38, 0xfa, 0x19, 0xa2, 0x38, 0xfd, 0xbb, 0x81, 0x38,
    0x04, 0x8b, 0x89, 0x38, 0xb6, 0x49, 0xd0, 0x38, 0x44, 0x7d, 0xbc, 0x38,
    0x12, 0x00, 0x00, 0x00, 0x74, 0x66, 0x6c, 0x2e, 0x70, 0x73, 0x65, 0x75,
    0x64, 0x6f, 0x5f, 0x71, 0x63, 0x6f, 0x6e, 0x73, 0x74, 0x32, 0x00, 0x00,
    0x01, 0x00, 0x00, 0x00, 0x10, 0x00, 0x00, 0x00, 0x76, 0xff, 0xff, 0xff,
    0x00, 0x00, 0x00, 0x01, 0x14, 0x00, 0x00, 0x00, 0x58, 0x00, 0x00, 0x00,
    0x03, 0x00, 0x00, 0x00, 0x00, 0x00, 0x00, 0x09, 0x64, 0x00, 0x00, 0x00,
    0xb4, 0xfe, 0xff, 0xff, 0x08, 0x00, 0x00, 0x00, 0x2c, 0x00, 0x00, 0x00,
    0x04, 0x00, 0x00, 0x00, 0x00, 0x00, 0x00, 0x00, 0x00, 0x00, 0x00, 0x00,
    0x00, 0x00, 0x00, 0x00, 0x00, 0x00, 0x00, 0x00, 0x00, 0x00, 0x00, 0x00,
    0x00, 0x00, 0x00, 0x00, 0x00, 0x00, 0x00, 0x00, 0x00, 0x00, 0x00, 0x00,
    0x00, 0x00, 0x00, 0x00, 0x04, 0x00, 0x00, 0x00, 0x69, 0xa1, 0xa0, 0x3b,
    0x59, 0xb2, 0xac, 0x3b, 0x29, 0xff, 0xd0, 0x3b, 0x4c, 0x38, 0xd7, 0x3b,
    0x12, 0x00, 0x00, 0x00, 0x74, 0x66, 0x6c, 0x2e, 0x70, 0x73, 0x65, 0x75,
    0x64, 0x6f, 0x5f, 0x71, 0x63, 0x6f, 0x6e, 0x73, 0x74, 0x31, 0x00, 0x00,
    0x02, 0x00, 0x00, 0x00, 0x04, 0x00, 0x00, 0x00, 0x10, 0x00, 0x00, 0x00,
    0x00, 0x00, 0x16, 0x00, 0x1c, 0x00, 0x18, 0x00, 0x17, 0x00, 0x10, 0x00,
    0x0c, 0x00, 0x08, 0x00, 0x00, 0x00, 0x00, 0x00, 0x00, 0x00, 0x07, 0x00,
    0x16, 0x00, 0x00, 0x00, 0x00, 0x00, 0x00, 0x01, 0x14, 0x00, 0x00, 0x00,
    0x58, 0x00, 0x00, 0x00, 0x02, 0x00, 0x00, 0x00, 0x00, 0x00, 0x00, 0x02,
    0x64, 0x00, 0x00, 0x00, 0x54, 0xff, 0xff, 0xff, 0x08, 0x00, 0x00, 0x00,
    0x2c, 0x00, 0x00, 0x00, 0x04, 0x00, 0x00, 0x00, 0x00, 0x00, 0x00, 0x00,
    0x00, 0x00, 0x00, 0x00, 0x00, 0x00, 0x00, 0x00, 0x00, 0x00, 0x00, 0x00,
    0x00, 0x00, 0x00, 0x00, 0x00, 0x00, 0x00, 0x00, 0x00, 0x00, 0x00, 0x00,
    0x00, 0x00, 0x00, 0x00, 0x00, 0x00, 0x00, 0x00, 0x04, 0x00, 0x00, 0x00,
    0xff, 0x36, 0x3b, 0x39, 0x27, 0x47, 0x49, 0x39, 0xec, 0x95, 0x73, 0x39,
    0xb9, 0xd6, 0x7a, 0x39, 0x11, 0x00, 0x00, 0x00, 0x74, 0x66, 0x6c, 0x2e,
    0x70, 0x73, 0x65, 0x75, 0x64, 0x6f, 0x5f, 0x71, 0x63, 0x6f, 0x6e, 0x73,
    0x74, 0x00, 0x00, 0x00, 0x01, 0x00, 0x00, 0x00, 0x04, 0x00, 0x00, 0x00,
    0x00, 0x00, 0x16, 0x00, 0x20, 0x00, 0x1c, 0x00, 0x1b, 0x00, 0x14, 0x00,
    0x10, 0x00, 0x0c, 0x00, 0x00, 0x00, 0x00, 0x00, 0x08, 0x00, 0x07, 0x00,
    0x16, 0x00, 0x00, 0x00, 0x00, 0x00, 0x00, 0x01, 0x18, 0x00, 0x00, 0x00,
    0x2c, 0x00, 0x00, 0x00, 0x4c, 0x00, 0x00, 0x00, 0x01, 0x00, 0x00, 0x00,
    0x00, 0x00, 0x00, 0x09, 0x60, 0x00, 0x00, 0x00, 0x02, 0x00, 0x00, 0x00,
    0xff, 0xff, 0xff, 0xff, 0x16, 0x00, 0x00, 0x00, 0x0c, 0x00, 0x0c, 0x00,
    0x00, 0x00, 0x00, 0x00, 0x08, 0x00, 0x04, 0x00, 0x0c, 0x00, 0x00, 0x00,
    0x08, 0x00, 0x00, 0x00, 0x14, 0x00, 0x00, 0x00, 0x01, 0x00, 0x00, 0x00,
    0x10, 0x00, 0x00, 0x00, 0x00, 0x00, 0x00, 0x00, 0x00, 0x00, 0x00, 0x00,
    0x01, 0x00, 0x00, 0x00, 0x79, 0x60, 0xbd, 0x3c, 0x1a, 0x00, 0x00, 0x00,
    0x73, 0x65, 0x72, 0x76, 0x69, 0x6e, 0x67, 0x5f, 0x64, 0x65, 0x66, 0x61,
    0x75, 0x6c, 0x74, 0x5f, 0x66, 0x65, 0x61, 0x74, 0x75, 0x72, 0x65, 0x73,
    0x3a, 0x30, 0x00, 0x00, 0x02, 0x00, 0x00, 0x00, 0x01, 0x00, 0x00, 0x00,
    0x16, 0x00, 0x00, 0x00, 0x02, 0x00, 0x00, 0x00, 0x24, 0x00, 0x00, 0x00,
    0x04, 0x00, 0x00, 0x00, 0xf0, 0xff, 0xff, 0xff, 0x19, 0x00, 0x00, 0x00,
    0x02, 0x00, 0x00, 0x00, 0x00, 0x00, 0x00, 0x19, 0x0c, 0x00, 0x10, 0x00,
    0x0f, 0x00, 0x00, 0x00, 0x08, 0x00, 0x04, 0x00, 0x0c, 0x00, 0x00, 0x00,
    0x09, 0x00, 0x00, 0x00, 0x04, 0x00, 0x00, 0x00, 0x00, 0x00, 0x00, 0x09,
};

const unsigned int g_model_len = 5256;
